unsigned char model[] = {
0x1c, 0x00, 0x00, 0x00, 0x54, 0x46, 0x4c, 0x33, 0x14, 0x00, 0x20, 0x00, 0x1c, 0x00, 0x18, 0x00, 0x14, 0x00, 0x10, 0x00, 0x0c, 0x00, 0x00, 0x00, 0x08, 0x00, 0x04, 0x00, 0x14, 0x00, 0x00, 0x00, 0x1c, 0x00, 0x00, 0x00, 0x98, 0x00, 0x00, 0x00, 0xf0, 0x00, 0x00, 0x00, 0x00, 0x08, 0x00, 0x00, 0x10, 0x08, 0x00, 0x00, 0x44, 0x0d, 0x00, 0x00, 0x03, 0x00, 0x00, 0x00, 0x01, 0x00, 0x00, 0x00, 0x10, 0x00, 0x00, 0x00, 0x00, 0x00, 0x0a, 0x00, 0x10, 0x00, 0x0c, 0x00, 0x08, 0x00, 0x04, 0x00, 0x0a, 0x00, 0x00, 0x00, 0x0c, 0x00, 0x00, 0x00, 0x1c, 0x00, 0x00, 0x00, 0x3c, 0x00, 0x00, 0x00, 0x0f, 0x00, 0x00, 0x00, 0x73, 0x65, 0x72, 0x76, 0x69, 0x6e, 0x67, 0x5f, 0x64, 0x65, 0x66, 0x61, 0x75, 0x6c, 0x74, 0x00, 0x01, 0x00, 0x00, 0x00, 0x04, 0x00, 0x00, 0x00, 0x90, 0xff, 0xff, 0xff, 0x09, 0x00, 0x00, 0x00, 0x04, 0x00, 0x00, 0x00, 0x08, 0x00, 0x00, 0x00, 0x64, 0x65, 0x6e, 0x73, 0x65, 0x5f, 0x31, 0x34, 0x00, 0x00, 0x00, 0x00, 0x01, 0x00, 0x00, 0x00, 0x04, 0x00, 0x00, 0x00, 0xba, 0xf8, 0xff, 0xff, 0x04, 0x00, 0x00, 0x00, 0x0e, 0x00, 0x00, 0x00, 0x64, 0x65, 0x6e, 0x73, 0x65, 0x5f, 0x31, 0x32, 0x5f, 0x69, 0x6e, 0x70, 0x75, 0x74, 0x00, 0x00, 0x02, 0x00, 0x00, 0x00, 0x34, 0x00, 0x00, 0x00, 0x04, 0x00, 0x00, 0x00, 0xdc, 0xff, 0xff, 0xff, 0x0c, 0x00, 0x00, 0x00, 0x04, 0x00, 0x00, 0x00, 0x13, 0x00, 0x00, 0x00, 0x43, 0x4f, 0x4e, 0x56, 0x45, 0x52, 0x53, 0x49, 0x4f, 0x4e, 0x5f, 0x4d, 0x45, 0x54, 0x41, 0x44, 0x41, 0x54, 0x41, 0x00, 0x08, 0x00, 0x0c, 0x00, 0x08, 0x00, 0x04, 0x00, 0x08, 0x00, 0x00, 0x00, 0x0b, 0x00, 0x00, 0x00, 0x04, 0x00, 0x00, 0x00, 0x13, 0x00, 0x00, 0x00, 0x6d, 0x69, 0x6e, 0x5f, 0x72, 0x75, 0x6e, 0x74, 0x69, 0x6d, 0x65, 0x5f, 0x76, 0x65, 0x72, 0x73, 0x69, 0x6f, 0x6e, 0x00, 0x0d, 0x00, 0x00, 0x00, 0x0c, 0x07, 0x00, 0x00, 0x04, 0x07, 0x00, 0x00, 0xc8, 0x06, 0x00, 0x00, 0x50, 0x06, 0x00, 0x00, 0x34, 0x06, 0x00, 0x00, 0x00, 0x06, 0x00, 0x00, 0xd0, 0x04, 0x00, 0x00, 0xa0, 0x00, 0x00, 0x00, 0x98, 0x00, 0x00, 0x00, 0x90, 0x00, 0x00, 0x00, 0x88, 0x00, 0x00, 0x00, 0x68, 0x00, 0x00, 0x00, 0x04, 0x00, 0x00, 0x00, 0x6a, 0xf9, 0xff, 0xff, 0x04, 0x00, 0x00, 0x00, 0x54, 0x00, 0x00, 0x00, 0x0c, 0x00, 0x00, 0x00, 0x08, 0x00, 0x0e, 0x00, 0x08, 0x00, 0x04, 0x00, 0x08, 0x00, 0x00, 0x00, 0x10, 0x00, 0x00, 0x00, 0x24, 0x00, 0x00, 0x00, 0x00, 0x00, 0x06, 0x00, 0x08, 0x00, 0x04, 0x00, 0x06, 0x00, 0x00, 0x00, 0x04, 0x00, 0x00, 0x00, 0x00, 0x00, 0x00, 0x00, 0x00, 0x00, 0x0a, 0x00, 0x10, 0x00, 0x0c, 0x00, 0x08, 0x00, 0x04, 0x00, 0x0a, 0x00, 0x00, 0x00, 0x02, 0x00, 0x00, 0x00, 0x02, 0x00, 0x00, 0x00, 0x04, 0x00, 0x00, 0x00, 0x06, 0x00, 0x00, 0x00, 0x32, 0x2e, 0x31, 0x32, 0x2e, 0x30, 0x00, 0x00, 0xca, 0xf9, 0xff, 0xff, 0x04, 0x00, 0x00, 0x00, 0x10, 0x00, 0x00, 0x00, 0x31, 0x2e, 0x35, 0x2e, 0x30, 0x00, 0x00, 0x00, 0x00, 0x00, 0x00, 0x00, 0x00, 0x00, 0x00, 0x00, 0x90, 0xf4, 0xff, 0xff, 0x94, 0xf4, 0xff, 0xff, 0x98, 0xf4, 0xff, 0xff, 0xf2, 0xf9, 0xff, 0xff, 0x04, 0x00, 0x00, 0x00, 0x20, 0x04, 0x00, 0x00, 0x8d, 0x3a, 0x84, 0x3f, 0xc2, 0xff, 0x88, 0x3e, 0x09, 0xc4, 0xd6, 0xc1, 0x2c, 0xb9, 0xe6, 0xbe, 0x93, 0xbd, 0x07, 0x3f, 0xe9, 0x37, 0x23, 0xbe, 0xe2, 0x7c, 0x05, 0xc2, 0xaf, 0x50, 0x3c, 0x3b, 0xde, 0xd8, 0xf5, 0xbf, 0xa2, 0x12, 0xac, 0x3e, 0x59, 0xaf, 0x24, 0xbe, 0x89, 0x07, 0x24, 0xc0, 0x1d, 0x2d, 0x5c, 0xc2, 0x30, 0xfb, 0x15, 0x3e, 0x1b, 0xea, 0x96, 0x3e, 0xa7, 0x69, 0x01, 0xbf, 0xa6, 0x82, 0x3f, 0x3e, 0xba, 0xda, 0xc1, 0xc1, 0x4d, 0x87, 0x04, 0xbf, 0x98, 0xa2, 0x5e, 0x3e, 0xd5, 0x94, 0x2e, 0x3d, 0x16, 0xc3, 0xc9, 0x3d, 0xbe, 0xb2, 0x40, 0x3e, 0x08, 0x63, 0xde, 0xbe, 0xb3, 0xa4, 0x51, 0xc2, 0xfb, 0xe0, 0x17, 0x3e, 0xdf, 0x0b, 0x4a, 0x3f, 0x2e, 0xc5, 0x3f, 0x3c, 0x98, 0xc3, 0x65, 0x3c, 0x66, 0x53, 0x22, 0xbe, 0x89, 0x45, 0x28, 0xbd, 0x20, 0x2a, 0x39, 0xbd, 0x5b, 0x55, 0x6c, 0x3f, 0x04, 0xb0, 0xc8, 0xbe, 0x97, 0xf6, 0x7d, 0xbf, 0xbf, 0xd6, 0x8c, 0x3e, 0x01, 0x99, 0x20, 0xbf, 0xed, 0x0e, 0x93, 0xbf, 0xf4, 0x1b, 0xe3, 0xbf, 0x6c, 0x14, 0x19, 0x3d, 0x7c, 0xa7, 0x8b, 0x3e, 0xd8, 0x4e, 0xe7, 0x3d, 0xf0, 0x5f, 0x0a, 0x3c, 0x79, 0x45, 0xd9, 0xbe, 0x4c, 0xb8, 0x13, 0x40, 0x29, 0x29, 0xa4, 0xbd, 0x08, 0xb8, 0x05, 0x3e, 0x12, 0x48, 0x96, 0x3d, 0x65, 0x7d, 0xba, 0xbf, 0x20, 0x75, 0x96, 0xbf, 0x06, 0x9d, 0x02, 0x3f, 0x27, 0x8b, 0x46, 0xbc, 0x44, 0x12, 0x34, 0xbf, 0xf2, 0x10, 0x8c, 0x3e, 0x14, 0x6a, 0xb6, 0x3d, 0x2f, 0xcf, 0x47, 0xbd, 0xd2, 0x5a, 0x03, 0xbd, 0x0d, 0xed, 0xee, 0x3e, 0x3b, 0x1d, 0x25, 0x3f, 0x08, 0x1d, 0xa3, 0x3d, 0xe9, 0x3b, 0x1b, 0xbf, 0x5d, 0xdc, 0x5a, 0xc1, 0xdf, 0x26, 0x1d, 0x3d, 0xf8, 0xe5, 0x89, 0xbe, 0xd2, 0xd9, 0x7a, 0x3e, 0x46, 0x19, 0xd8, 0x3d, 0x43, 0x88, 0x13, 0x3f, 0xf3, 0xcf, 0x79, 0xc1, 0x11, 0x3a, 0xa3, 0x3e, 0x6c, 0x30, 0x93, 0x3e, 0x22, 0xfb, 0x4a, 0xbf, 0xaf, 0x04, 0x3e, 0x3e, 0x89, 0xbd, 0x06, 0xc0, 0xf8, 0x06, 0xaf, 0xbe, 0xcd, 0x94, 0xc6, 0x3e, 0x47, 0xfe, 0xa0, 0xbd, 0xe6, 0x23, 0x89, 0x3e, 0x5d, 0x6f, 0x02, 0x3e, 0xaf, 0x98, 0xbb, 0x3e, 0x1f, 0x21, 0xa4, 0xbd, 0x38, 0x6a, 0xa7, 0x3d, 0x81, 0x95, 0x93, 0x3e, 0x8a, 0x5d, 0x14, 0xbf, 0x25, 0xb0, 0x5d, 0xc2, 0x63, 0xdc, 0x16, 0x3f, 0x9e, 0xf4, 0x56, 0xbd, 0xbd, 0xc0, 0x2c, 0x3f, 0xcd, 0xd0, 0x14, 0x3e, 0x72, 0xcc, 0x82, 0xbf, 0x7a, 0xcc, 0x35, 0x3f, 0xdd, 0x6a, 0x99, 0xc1, 0xfb, 0x0f, 0xa4, 0xbe, 0x05, 0x8a, 0xb2, 0xc0, 0x47, 0xf0, 0x4c, 0x3f, 0xf0, 0xcc, 0x4e, 0x3f, 0x6e, 0x5f, 0x06, 0xbe, 0x50, 0xbb, 0xd6, 0xc0, 0x1e, 0x82, 0x74, 0xbe, 0xe2, 0xf2, 0xbc, 0xc0, 0xda, 0x8d, 0x1b, 0xbf, 0x0b, 0x13, 0x23, 0x3f, 0x2f, 0x67, 0x0b, 0x3e, 0x2a, 0x62, 0x0d, 0xc2, 0xea, 0x37, 0x10, 0xbe, 0x54, 0x61, 0x22, 0xbf, 0x9b, 0x1c, 0xae, 0x3e, 0x03, 0x0f, 0xa6, 0x3e, 0x4a, 0x2c, 0x7d, 0xbf, 0x73, 0x09, 0x27, 0xc0, 0x55, 0x1a, 0x1f, 0x3e, 0x72, 0xd0, 0xa6, 0x3e, 0x11, 0xc3, 0x0e, 0x3e, 0x8b, 0xdd, 0x41, 0x3f, 0xac, 0x7e, 0x89, 0xc0, 0x24, 0x69, 0xd2, 0xc1, 0xa4, 0x4b, 0x5c, 0x3b, 0xc0, 0x55, 0x8a, 0x3e, 0xdc, 0x35, 0xd6, 0x3d, 0x16, 0xd5, 0x2d, 0x3f, 0x95, 0x7b, 0x6c, 0xbf, 0x0f, 0x41, 0x95, 0xbd, 0x65, 0xc6, 0x3e, 0x3e, 0x50, 0xd4, 0x4b, 0xbf, 0x1b, 0x63, 0x8d, 0x3e, 0xf8, 0xd8, 0x95, 0xbf, 0xa0, 0xc2, 0x9f, 0xbe, 0xa2, 0x3b, 0x98, 0xbd, 0x04, 0x0f, 0xe6, 0xbd, 0x03, 0xc9, 0x88, 0xc1, 0x7b, 0xe8, 0x27, 0xbf, 0xca, 0x05, 0x9f, 0x3e, 0xd7, 0x0d, 0xb4, 0xbe, 0x39, 0x3c, 0xd0, 0x3e, 0xc3, 0xc7, 0xc5, 0xbe, 0x27, 0x99, 0x43, 0x3e, 0x85, 0xd1, 0x52, 0x3f, 0xbd, 0xe6, 0x1c, 0xbd, 0x43, 0x98, 0xcd, 0x3d, 0x48, 0x2e, 0xaf, 0xbd, 0x0e, 0x8d, 0xa9, 0xbb, 0x94, 0xc6, 0x8d, 0x3e, 0x6a, 0x5c, 0x06, 0x3f, 0x9f, 0x63, 0x77, 0x3f, 0x37, 0x19, 0xe9, 0xbe, 0x40, 0xff, 0x6e, 0x3f, 0xfb, 0xb1, 0x9b, 0xbc, 0x90, 0x0e, 0xc5, 0xbf, 0x12, 0x7e, 0x5b, 0xbd, 0x1d, 0x87, 0xbb, 0xc0, 0x75, 0x46, 0x55, 0xbf, 0xd5, 0x48, 0x46, 0x3e, 0x9b, 0xf9, 0x4c, 0xbd, 0xe0, 0x14, 0x80, 0x3e, 0x5d, 0xbf, 0xd5, 0xbd, 0x7d, 0x7a, 0x6b, 0x3e, 0x1e, 0xbd, 0x9a, 0xbc, 0x52, 0x67, 0xb2, 0xbc, 0xbd, 0x0a, 0x40, 0x3d, 0x51, 0xf1, 0x33, 0x3f, 0x85, 0x30, 0xe4, 0x3e, 0x49, 0xa9, 0x13, 0x3e, 0x11, 0x09, 0x0a, 0x3e, 0x84, 0x42, 0x05, 0xbe, 0x1c, 0x80, 0x22, 0xbf, 0x9c, 0xb2, 0x91, 0xbe, 0xbd, 0xea, 0x08, 0x3f, 0x2f, 0x53, 0xa5, 0xbd, 0x3d, 0x0d, 0x64, 0x3e, 0x03, 0xde, 0x8e, 0x3f, 0xbe, 0x56, 0x83, 0x3e, 0x1c, 0x53, 0x83, 0xbf, 0x2a, 0x95, 0x83, 0x3e, 0x9e, 0x8f, 0x63, 0x3e, 0x6a, 0x8d, 0x19, 0xbe, 0x89, 0x99, 0x9a, 0xc1, 0xfb, 0x06, 0x9b, 0xbe, 0x52, 0xf0, 0x69, 0xbd, 0xe4, 0x18, 0x48, 0xbf, 0x73, 0x4b, 0x42, 0xbe, 0xff, 0x02, 0x41, 0x40, 0xb3, 0x87, 0xb3, 0xc1, 0x44, 0x22, 0x85, 0xbe, 0x46, 0x4b, 0xc4, 0x3f, 0xf6, 0x63, 0x4f, 0x3e, 0x70, 0x42, 0x26, 0xbf, 0x86, 0x87, 0x85, 0xc0, 0xb2, 0x1e, 0x9b, 0xbf, 0x48, 0x33, 0x86, 0xbe, 0x41, 0x3b, 0xc2, 0xbe, 0x6e, 0xfc, 0xe0, 0x3e, 0xb6, 0x3d, 0x31, 0x3e, 0x50, 0x42, 0x80, 0x3e, 0x67, 0x46, 0x00, 0xc2, 0xd1, 0x70, 0x89, 0x3f, 0x34, 0x39, 0x0b, 0xbf, 0x36, 0x0b, 0x13, 0x3e, 0xdb, 0x65, 0x77, 0xbe, 0x44, 0x18, 0x5f, 0xbf, 0x0f, 0x05, 0x6e, 0xbd, 0x5e, 0x82, 0x87, 0xbd, 0x97, 0x2c, 0x0c, 0xbe, 0xa7, 0xd3, 0x31, 0xbf, 0x24, 0xb2, 0x2e, 0xbf, 0x3f, 0xa1, 0x63, 0xbf, 0x31, 0x38, 0xae, 0x3f, 0x73, 0x13, 0xbc, 0xbf, 0xf2, 0xc7, 0xf7, 0xbf, 0xfc, 0x32, 0xd7, 0x3e, 0x14, 0x9e, 0xd4, 0xbd, 0xbc, 0xb1, 0x0b, 0x3e, 0x93, 0xd2, 0x7a, 0xbf, 0x89, 0x82, 0xf4, 0xbe, 0xf0, 0xba, 0x91, 0x38, 0xa6, 0x8b, 0x2c, 0x3f, 0x33, 0xb4, 0x6b, 0xbf, 0x08, 0x69, 0x5e, 0x3f, 0x50, 0xaa, 0x20, 0xc2, 0x49, 0xc8, 0x2a, 0x40, 0x9e, 0xfe, 0x53, 0xbf, 0xe1, 0x98, 0x66, 0xbe, 0x27, 0x72, 0x62, 0x41, 0xed, 0x32, 0x3c, 0xc2, 0x6e, 0x27, 0x89, 0xbf, 0xb7, 0x57, 0x12, 0xbf, 0x75, 0x2c, 0x27, 0x3f, 0xf6, 0x63, 0xfb, 0xc1, 0x0d, 0xe5, 0xae, 0xbf, 0xca, 0x85, 0x4f, 0xbf, 0x87, 0x07, 0xba, 0xbf, 0x4e, 0x22, 0x7d, 0x40, 0xf5, 0x94, 0xf0, 0x3f, 0x02, 0x7a, 0x12, 0xc1, 0xd0, 0xe9, 0xcf, 0xbf, 0x9f, 0x94, 0x2f, 0xbf, 0x47, 0x7e, 0xb0, 0x3e, 0x02, 0x7a, 0xd9, 0xc1, 0x98, 0x62, 0x96, 0xc0, 0x0d, 0x1b, 0x3e, 0x3f, 0xda, 0xd3, 0x2f, 0xc1, 0x6f, 0x11, 0x4b, 0x3f, 0xe0, 0x17, 0x2a, 0xc0, 0x5f, 0xfd, 0x81, 0x3e, 0x60, 0xea, 0x73, 0x3e, 0x23, 0xe5, 0x07, 0xbe, 0x00, 0xc3, 0xad, 0x3e, 0xce, 0x92, 0x8d, 0xbe, 0x7c, 0x70, 0x69, 0xbe, 0xa7, 0x18, 0xe2, 0x3c, 0x0c, 0x06, 0x6f, 0xc0, 0xe4, 0x32, 0x95, 0xbd, 0x8b, 0x9e, 0xa7, 0x3e, 0xa7, 0x26, 0xb3, 0xbe, 0x84, 0x1e, 0xf0, 0xbf, 0x38, 0x9f, 0xce, 0xbf, 0xb1, 0x90, 0xb8, 0xc0, 0x53, 0x61, 0x5f, 0x3d, 0x69, 0xcc, 0x3a, 0x3e, 0xc3, 0x82, 0x27, 0x3e, 0x94, 0x44, 0xb7, 0x3f, 0x65, 0x97, 0xd2, 0xc0, 0xc7, 0xf0, 0x1f, 0xbf, 0xe2, 0x2c, 0x1e, 0x3f, 0x52, 0xa3, 0x5d, 0x3f, 0x79, 0xb3, 0xaf, 0xbe, 0x1e, 0xfe, 0xff, 0xff, 0x04, 0x00, 0x00, 0x00, 0x20, 0x01, 0x00, 0x00, 0x67, 0xc0, 0x1f, 0xbf, 0x53, 0x8f, 0x1a, 0x3d, 0xed, 0x7d, 0x4e, 0x3d, 0x56, 0x96, 0xad, 0xbd, 0xf9, 0x35, 0x9d, 0xbd, 0x5f, 0xb0, 0x51, 0x3e, 0xc0, 0x29, 0x55, 0x3e, 0x44, 0xf1, 0x5a, 0x3a, 0x37, 0xa0, 0xb8, 0xbe, 0xc5, 0x65, 0x17, 0x3e, 0xa7, 0x3f, 0xa3, 0x3d, 0x76, 0xb0, 0x30, 0xbe, 0x7b, 0xe3, 0x8b, 0x3e, 0xf9, 0xaa, 0x9f, 0xbe, 0x32, 0xa2, 0x20, 0x3d, 0xf6, 0xa9, 0x71, 0x3e, 0x15, 0x4a, 0xe6, 0xbd, 0xe4, 0x86, 0x17, 0x3e, 0x14, 0x30, 0xc4, 0x3d, 0x55, 0xeb, 0x83, 0x3e, 0xe2, 0xa2, 0x92, 0xbe, 0x35, 0x42, 0x6e, 0x89, 0x08, 0xfe, 0x79, 0x09, 0xff, 0x99, 0x41, 0x89, 0x55, 0x27, 0x7a, 0x3e, 0x88, 0x6b, 0xb8, 0xbe, 0x91, 0xfa, 0x43, 0xbe, 0x6e, 0xa1, 0x5d, 0x3e, 0xdf, 0x31, 0xce, 0x3d, 0x0f, 0xf3, 0x5d, 0x3d, 0xd9, 0x47, 0x7e, 0xbe, 0x47, 0xce, 0x47, 0x3e, 0xe1, 0x55, 0x6c, 0x3e, 0x81, 0x14, 0x9c, 0xbd, 0x51, 0x87, 0x5f, 0x3e, 0xc0, 0xbd, 0x81, 0xbe, 0x68, 0x31, 0x6d, 0xbe, 0x13, 0xa7, 0xb7, 0x3e, 0x20, 0xab, 0x10, 0xbe, 0xee, 0x8d, 0x38, 0xbe, 0x9b, 0x78, 0x41, 0xbe, 0xb3, 0x10, 0x99, 0x3e, 0xe1, 0x9a, 0xff, 0xbd, 0x19, 0xbb, 0x42, 0xbd, 0xa6, 0x72, 0xe0, 0xbc, 0x28, 0x7c, 0x90, 0x3e, 0xb3, 0x35, 0x13, 0xbe, 0xbe, 0x02, 0x43, 0xbd, 0x90, 0x16, 0xf5, 0xbb, 0xaf, 0x03, 0xa6, 0x3e, 0x6f, 0xc9, 0xbd, 0xbc, 0x65, 0xbe, 0x40, 0x89, 0x21, 0x2d, 0x50, 0x09, 0xe3, 0xae, 0x40, 0x89, 0xf5, 0x03, 0xb1, 0xbe, 0x6e, 0x20, 0xa6, 0x3e, 0x28, 0x9e, 0xad, 0xbc, 0x0e, 0x3c, 0x94, 0xbd, 0x0f, 0x7d, 0x67, 0xbe, 0x7c, 0x62, 0x3d, 0x3e, 0xea, 0xc2, 0xad, 0xbe, 0x53, 0x93, 0x3f, 0x3d, 0xab, 0x18, 0x9c, 0x3e, 0x17, 0x9a, 0xf1, 0xbd, 0x2d, 0x0c, 0xd3, 0x3d, 0xe5, 0x62, 0x9e, 0x3d, 0xae, 0xe9, 0x98, 0x3d, 0x1a, 0x8a, 0x0b, 0x3e, 0x41, 0x9a, 0x37, 0x3e, 0x89, 0x87, 0x87, 0x3d, 0x64, 0x8d, 0x54, 0x3e, 0x27, 0xfe, 0xce, 0xbd, 0x4a, 0xff, 0xff, 0xff, 0x04, 0x00, 0x00, 0x00, 0x24, 0x00, 0x00, 0x00, 0x15, 0xfa, 0x11, 0xbd, 0x47, 0x79, 0xbf, 0x3e, 0xa6, 0x3f, 0x3d, 0xbe, 0x47, 0x5e, 0xae, 0xbd, 0xbe, 0xfa, 0xfa, 0xbb, 0xda, 0x2a, 0x64, 0x3e, 0xd6, 0x72, 0x76, 0x3e, 0x39, 0x07, 0xa5, 0xbc, 0x99, 0xea, 0x87, 0xbd, 0x7a, 0xff, 0xff, 0xff, 0x04, 0x00, 0x00, 0x00, 0x0c, 0x00, 0x00, 0x00, 0xb0, 0x4d, 0x7c, 0x40, 0xa4, 0x5c, 0x12, 0x40, 0xc2, 0xe3, 0xbd, 0xbc, 0x92, 0xff, 0xff, 0xff, 0x04, 0x00, 0x00, 0x00, 0x60, 0x00, 0x00, 0x00, 0xcb, 0xf1, 0xa3, 0xbe, 0x6e, 0x91, 0x9b, 0x40, 0x60, 0xee, 0x99, 0x40, 0x54, 0xee, 0xde, 0x3f, 0xfb, 0xc5, 0x0c, 0xbf, 0x3d, 0x66, 0x4f, 0xc0, 0xfd, 0x15, 0x30, 0x3f, 0xc3, 0x2f, 0x87, 0xbe, 0x07, 0xda, 0xa5, 0x40, 0x56, 0x90, 0xaa, 0xc0, 0x0e, 0x83, 0x91, 0x3d, 0x17, 0x09, 0x0a, 0x40, 0x80, 0xa3, 0xb2, 0xbf, 0x7a, 0xc9, 0x8b, 0x3f, 0xca, 0x73, 0xca, 0x40, 0xc5, 0x32, 0x57, 0x3f, 0x58, 0x4e, 0x2c, 0xc0, 0x69, 0x7b, 0x7b, 0xbf, 0x89, 0x0d, 0xeb, 0x3f, 0x71, 0x35, 0xa9, 0x3f, 0x2b, 0x29, 0xa8, 0x3f, 0x63, 0xfb, 0x21, 0x40, 0x8b, 0x33, 0xdb, 0xc0, 0x39, 0xcb, 0xa3, 0x40, 0x00, 0x00, 0x06, 0x00, 0x08, 0x00, 0x04, 0x00, 0x06, 0x00, 0x00, 0x00, 0x04, 0x00, 0x00, 0x00, 0x2c, 0x00, 0x00, 0x00, 0xc3, 0x81, 0x8a, 0x3e, 0x86, 0x4e, 0x7a, 0x3f, 0xff, 0xe7, 0x11, 0xbf, 0x3c, 0xf9, 0x88, 0xc0, 0xd6, 0x7b, 0x73, 0xc0, 0x38, 0x7a, 0x36, 0xbf, 0x18, 0x3e, 0x86, 0x3f, 0xcd, 0x92, 0x32, 0x40, 0x8a, 0xfe, 0x94, 0x40, 0x63, 0x78, 0x0c, 0x40, 0xb5, 0x2e, 0x1b, 0xc0, 0xe8, 0xfa, 0xff, 0xff, 0xec, 0xfa, 0xff, 0xff, 0x0f, 0x00, 0x00, 0x00, 0x4d, 0x4c, 0x49, 0x52, 0x20, 0x43, 0x6f, 0x6e, 0x76, 0x65, 0x72, 0x74, 0x65, 0x64, 0x2e, 0x00, 0x01, 0x00, 0x00, 0x00, 0x14, 0x00, 0x00, 0x00, 0x00, 0x00, 0x0e, 0x00, 0x18, 0x00, 0x14, 0x00, 0x10, 0x00, 0x0c, 0x00, 0x08, 0x00, 0x04, 0x00, 0x0e, 0x00, 0x00, 0x00, 0x14, 0x00, 0x00, 0x00, 0x1c, 0x00, 0x00, 0x00, 0xd8, 0x00, 0x00, 0x00, 0xdc, 0x00, 0x00, 0x00, 0xe0, 0x00, 0x00, 0x00, 0x04, 0x00, 0x00, 0x00, 0x6d, 0x61, 0x69, 0x6e, 0x00, 0x00, 0x00, 0x00, 0x03, 0x00, 0x00, 0x00, 0x80, 0x00, 0x00, 0x00, 0x38, 0x00, 0x00, 0x00, 0x04, 0x00, 0x00, 0x00, 0x9a, 0xff, 0xff, 0xff, 0x10, 0x00, 0x00, 0x00, 0x00, 0x00, 0x00, 0x08, 0x0c, 0x00, 0x00, 0x00, 0x10, 0x00, 0x00, 0x00, 0x64, 0xfb, 0xff, 0xff, 0x01, 0x00, 0x00, 0x00, 0x09, 0x00, 0x00, 0x00, 0x03, 0x00, 0x00, 0x00, 0x08, 0x00, 0x00, 0x00, 0x06, 0x00, 0x00, 0x00, 0x01, 0x00, 0x00, 0x00, 0xca, 0xff, 0xff, 0xff, 0x10, 0x00, 0x00, 0x00, 0x00, 0x00, 0x00, 0x08, 0x10, 0x00, 0x00, 0x00, 0x14, 0x00, 0x00, 0x00, 0xba, 0xff, 0xff, 0xff, 0x00, 0x00, 0x00, 0x01, 0x01, 0x00, 0x00, 0x00, 0x08, 0x00, 0x00, 0x00, 0x03, 0x00, 0x00, 0x00, 0x07, 0x00, 0x00, 0x00, 0x05, 0x00, 0x00, 0x00, 0x02, 0x00, 0x00, 0x00, 0x00, 0x00, 0x0e, 0x00, 0x16, 0x00, 0x00, 0x00, 0x10, 0x00, 0x0c, 0x00, 0x0b, 0x00, 0x04, 0x00, 0x0e, 0x00, 0x00, 0x00, 0x18, 0x00, 0x00, 0x00, 0x00, 0x00, 0x00, 0x08, 0x18, 0x00, 0x00, 0x00, 0x1c, 0x00, 0x00, 0x00, 0x00, 0x00, 0x06, 0x00, 0x08, 0x00, 0x07, 0x00, 0x06, 0x00, 0x00, 0x00, 0x00, 0x00, 0x00, 0x01, 0x01, 0x00, 0x00, 0x00, 0x07, 0x00, 0x00, 0x00, 0x03, 0x00, 0x00, 0x00, 0x00, 0x00, 0x00, 0x00, 0x04, 0x00, 0x00, 0x00, 0x03, 0x00, 0x00, 0x00, 0x01, 0x00, 0x00, 0x00, 0x09, 0x00, 0x00, 0x00, 0x01, 0x00, 0x00, 0x00, 0x00, 0x00, 0x00, 0x00, 0x0a, 0x00, 0x00, 0x00, 0xc4, 0x03, 0x00, 0x00, 0x50, 0x03, 0x00, 0x00, 0xdc, 0x02, 0x00, 0x00, 0x80, 0x02, 0x00, 0x00, 0x30, 0x02, 0x00, 0x00, 0xe0, 0x01, 0x00, 0x00, 0x90, 0x01, 0x00, 0x00, 0xf8, 0x00, 0x00, 0x00, 0x60, 0x00, 0x00, 0x00, 0x04, 0x00, 0x00, 0x00, 0x7a, 0xfc, 0xff, 0xff, 0x00, 0x00, 0x00, 0x01, 0x14, 0x00, 0x00, 0x00, 0x1c, 0x00, 0x00, 0x00, 0x1c, 0x00, 0x00, 0x00, 0x0a, 0x00, 0x00, 0x00, 0x34, 0x00, 0x00, 0x00, 0x02, 0x00, 0x00, 0x00, 0xff, 0xff, 0xff, 0xff, 0x0b, 0x00, 0x00, 0x00, 0x64, 0xfc, 0xff, 0xff, 0x19, 0x00, 0x00, 0x00, 0x53, 0x74, 0x61, 0x74, 0x65, 0x66, 0x75, 0x6c, 0x50, 0x61, 0x72, 0x74, 0x69, 0x74, 0x69, 0x6f, 0x6e, 0x65, 0x64, 0x43, 0x61, 0x6c, 0x6c, 0x3a, 0x30, 0x00, 0x00, 0x00, 0x02, 0x00, 0x00, 0x00, 0x01, 0x00, 0x00, 0x00, 0x0b, 0x00, 0x00, 0x00, 0xd2, 0xfc, 0xff, 0xff, 0x00, 0x00, 0x00, 0x01, 0x14, 0x00, 0x00, 0x00, 0x1c, 0x00, 0x00, 0x00, 0x1c, 0x00, 0x00, 0x00, 0x09, 0x00, 0x00, 0x00, 0x70, 0x00, 0x00, 0x00, 0x02, 0x00, 0x00, 0x00, 0xff, 0xff, 0xff, 0xff, 0x18, 0x00, 0x00, 0x00, 0xbc, 0xfc, 0xff, 0xff, 0x55, 0x00, 0x00, 0x00, 0x73, 0x65, 0x71, 0x75, 0x65, 0x6e, 0x74, 0x69, 0x61, 0x6c, 0x5f, 0x34, 0x2f, 0x64, 0x65, 0x6e, 0x73, 0x65, 0x5f, 0x31, 0x33, 0x2f, 0x4d, 0x61, 0x74, 0x4d, 0x75, 0x6c, 0x3b, 0x73, 0x65, 0x71, 0x75, 0x65, 0x6e, 0x74, 0x69, 0x61, 0x6c, 0x5f, 0x34, 0x2f, 0x64, 0x65, 0x6e, 0x73, 0x65, 0x5f, 0x31, 0x33, 0x2f, 0x52, 0x65, 0x6c, 0x75, 0x3b, 0x73, 0x65, 0x71, 0x75, 0x65, 0x6e, 0x74, 0x69, 0x61, 0x6c, 0x5f, 0x34, 0x2f, 0x64, 0x65, 0x6e, 0x73, 0x65, 0x5f, 0x31, 0x33, 0x2f, 0x42, 0x69, 0x61, 0x73, 0x41, 0x64, 0x64, 0x00, 0x00, 0x00, 0x02, 0x00, 0x00, 0x00, 0x01, 0x00, 0x00, 0x00, 0x18, 0x00, 0x00, 0x00, 0x66, 0xfd, 0xff, 0xff, 0x00, 0x00, 0x00, 0x01, 0x14, 0x00, 0x00, 0x00, 0x1c, 0x00, 0x00, 0x00, 0x1c, 0x00, 0x00, 0x00, 0x08, 0x00, 0x00, 0x00, 0x70, 0x00, 0x00, 0x00, 0x02, 0x00, 0x00, 0x00, 0xff, 0xff, 0xff, 0xff, 0x03, 0x00, 0x00, 0x00, 0x50, 0xfd, 0xff, 0xff, 0x55, 0x00, 0x00, 0x00, 0x73, 0x65, 0x71, 0x75, 0x65, 0x6e, 0x74, 0x69, 0x61, 0x6c, 0x5f, 0x34, 0x2f, 0x64, 0x65, 0x6e, 0x73, 0x65, 0x5f, 0x31, 0x32, 0x2f, 0x4d, 0x61, 0x74, 0x4d, 0x75, 0x6c, 0x3b, 0x73, 0x65, 0x71, 0x75, 0x65, 0x6e, 0x74, 0x69, 0x61, 0x6c, 0x5f, 0x34, 0x2f, 0x64, 0x65, 0x6e, 0x73, 0x65, 0x5f, 0x31, 0x32, 0x2f, 0x52, 0x65, 0x6c, 0x75, 0x3b, 0x73, 0x65, 0x71, 0x75, 0x65, 0x6e, 0x74, 0x69, 0x61, 0x6c, 0x5f, 0x34, 0x2f, 0x64, 0x65, 0x6e, 0x73, 0x65, 0x5f, 0x31, 0x32, 0x2f, 0x42, 0x69, 0x61, 0x73, 0x41, 0x64, 0x64, 0x00, 0x00, 0x00, 0x02, 0x00, 0x00, 0x00, 0x01, 0x00, 0x00, 0x00, 0x03, 0x00, 0x00, 0x00, 0x6a, 0xfe, 0xff, 0xff, 0x00, 0x00, 0x00, 0x01, 0x10, 0x00, 0x00, 0x00, 0x10, 0x00, 0x00, 0x00, 0x07, 0x00, 0x00, 0x00, 0x2c, 0x00, 0x00, 0x00, 0xd4, 0xfd, 0xff, 0xff, 0x1c, 0x00, 0x00, 0x00, 0x73, 0x65, 0x71, 0x75, 0x65, 0x6e, 0x74, 0x69, 0x61, 0x6c, 0x5f, 0x34, 0x2f, 0x64, 0x65, 0x6e, 0x73, 0x65, 0x5f, 0x31, 0x34, 0x2f, 0x4d, 0x61, 0x74, 0x4d, 0x75, 0x6c, 0x00, 0x00, 0x00, 0x00, 0x02, 0x00, 0x00, 0x00, 0x0b, 0x00, 0x00, 0x00, 0x18, 0x00, 0x00, 0x00, 0xb6, 0xfe, 0xff, 0xff, 0x00, 0x00, 0x00, 0x01, 0x10, 0x00, 0x00, 0x00, 0x10, 0x00, 0x00, 0x00, 0x06, 0x00, 0x00, 0x00, 0x2c, 0x00, 0x00, 0x00, 0x20, 0xfe, 0xff, 0xff, 0x1c, 0x00, 0x00, 0x00, 0x73, 0x65, 0x71, 0x75, 0x65, 0x6e, 0x74, 0x69, 0x61, 0x6c, 0x5f, 0x34, 0x2f, 0x64, 0x65, 0x6e, 0x73, 0x65, 0x5f, 0x31, 0x33, 0x2f, 0x4d, 0x61, 0x74, 0x4d, 0x75, 0x6c, 0x00, 0x00, 0x00, 0x00, 0x02, 0x00, 0x00, 0x00, 0x18, 0x00, 0x00, 0x00, 0x03, 0x00, 0x00, 0x00, 0x02, 0xff, 0xff, 0xff, 0x00, 0x00, 0x00, 0x01, 0x10, 0x00, 0x00, 0x00, 0x10, 0x00, 0x00, 0x00, 0x05, 0x00, 0x00, 0x00, 0x2c, 0x00, 0x00, 0x00, 0x6c, 0xfe, 0xff, 0xff, 0x1c, 0x00, 0x00, 0x00, 0x73, 0x65, 0x71, 0x75, 0x65, 0x6e, 0x74, 0x69, 0x61, 0x6c, 0x5f, 0x34, 0x2f, 0x64, 0x65, 0x6e, 0x73, 0x65, 0x5f, 0x31, 0x32, 0x2f, 0x4d, 0x61, 0x74, 0x4d, 0x75, 0x6c, 0x00, 0x00, 0x00, 0x00, 0x02, 0x00, 0x00, 0x00, 0x03, 0x00, 0x00, 0x00, 0x03, 0x00, 0x00, 0x00, 0x4e, 0xff, 0xff, 0xff, 0x00, 0x00, 0x00, 0x01, 0x10, 0x00, 0x00, 0x00, 0x10, 0x00, 0x00, 0x00, 0x04, 0x00, 0x00, 0x00, 0x3c, 0x00, 0x00, 0x00, 0xb8, 0xfe, 0xff, 0xff, 0x2c, 0x00, 0x00, 0x00, 0x73, 0x65, 0x71, 0x75, 0x65, 0x6e, 0x74, 0x69, 0x61, 0x6c, 0x5f, 0x34, 0x2f, 0x64, 0x65, 0x6e, 0x73, 0x65, 0x5f, 0x31, 0x32, 0x2f, 0x42, 0x69, 0x61, 0x73, 0x41, 0x64, 0x64, 0x2f, 0x52, 0x65, 0x61, 0x64, 0x56, 0x61, 0x72, 0x69, 0x61, 0x62, 0x6c, 0x65, 0x4f, 0x70, 0x00, 0x00, 0x00, 0x00, 0x01, 0x00, 0x00, 0x00, 0x03, 0x00, 0x00, 0x00, 0xa6, 0xff, 0xff, 0xff, 0x00, 0x00, 0x00, 0x01, 0x10, 0x00, 0x00, 0x00, 0x10, 0x00, 0x00, 0x00, 0x03, 0x00, 0x00, 0x00, 0x3c, 0x00, 0x00, 0x00, 0x10, 0xff, 0xff, 0xff, 0x2c, 0x00, 0x00, 0x00, 0x73, 0x65, 0x71, 0x75, 0x65, 0x6e, 0x74, 0x69, 0x61, 0x6c, 0x5f, 0x34, 0x2f, 0x64, 0x65, 0x6e, 0x73, 0x65, 0x5f, 0x31, 0x33, 0x2f, 0x42, 0x69, 0x61, 0x73, 0x41, 0x64, 0x64, 0x2f, 0x52, 0x65, 0x61, 0x64, 0x56, 0x61, 0x72, 0x69, 0x61, 0x62, 0x6c, 0x65, 0x4f, 0x70, 0x00, 0x00, 0x00, 0x00, 0x01, 0x00, 0x00, 0x00, 0x18, 0x00, 0x00, 0x00, 0x00, 0x00, 0x16, 0x00, 0x18, 0x00, 0x14, 0x00, 0x00, 0x00, 0x10, 0x00, 0x0c, 0x00, 0x08, 0x00, 0x00, 0x00, 0x00, 0x00, 0x00, 0x00, 0x07, 0x00, 0x16, 0x00, 0x00, 0x00, 0x00, 0x00, 0x00, 0x01, 0x10, 0x00, 0x00, 0x00, 0x10, 0x00, 0x00, 0x00, 0x02, 0x00, 0x00, 0x00, 0x3c, 0x00, 0x00, 0x00, 0x80, 0xff, 0xff, 0xff, 0x2c, 0x00, 0x00, 0x00, 0x73, 0x65, 0x71, 0x75, 0x65, 0x6e, 0x74, 0x69, 0x61, 0x6c, 0x5f, 0x34, 0x2f, 0x64, 0x65, 0x6e, 0x73, 0x65, 0x5f, 0x31, 0x34, 0x2f, 0x42, 0x69, 0x61, 0x73, 0x41, 0x64, 0x64, 0x2f, 0x52, 0x65, 0x61, 0x64, 0x56, 0x61, 0x72, 0x69, 0x61, 0x62, 0x6c, 0x65, 0x4f, 0x70, 0x00, 0x00, 0x00, 0x00, 0x01, 0x00, 0x00, 0x00, 0x0b, 0x00, 0x00, 0x00, 0x00, 0x00, 0x16, 0x00, 0x1c, 0x00, 0x18, 0x00, 0x00, 0x00, 0x14, 0x00, 0x10, 0x00, 0x0c, 0x00, 0x00, 0x00, 0x00, 0x00, 0x08, 0x00, 0x07, 0x00, 0x16, 0x00, 0x00, 0x00, 0x00, 0x00, 0x00, 0x01, 0x14, 0x00, 0x00, 0x00, 0x20, 0x00, 0x00, 0x00, 0x20, 0x00, 0x00, 0x00, 0x01, 0x00, 0x00, 0x00, 0x40, 0x00, 0x00, 0x00, 0x02, 0x00, 0x00, 0x00, 0xff, 0xff, 0xff, 0xff, 0x03, 0x00, 0x00, 0x00, 0x04, 0x00, 0x04, 0x00, 0x04, 0x00, 0x00, 0x00, 0x20, 0x00, 0x00, 0x00, 0x73, 0x65, 0x72, 0x76, 0x69, 0x6e, 0x67, 0x5f, 0x64, 0x65, 0x66, 0x61, 0x75, 0x6c, 0x74, 0x5f, 0x64, 0x65, 0x6e, 0x73, 0x65, 0x5f, 0x31, 0x32, 0x5f, 0x69, 0x6e, 0x70, 0x75, 0x74, 0x3a, 0x30, 0x00, 0x00, 0x00, 0x00, 0x02, 0x00, 0x00, 0x00, 0x01, 0x00, 0x00, 0x00, 0x03, 0x00, 0x00, 0x00, 0x01, 0x00, 0x00, 0x00, 0x10, 0x00, 0x00, 0x00, 0x0c, 0x00, 0x0c, 0x00, 0x0b, 0x00, 0x00, 0x00, 0x00, 0x00, 0x04, 0x00, 0x0c, 0x00, 0x00, 0x00, 0x09, 0x00, 0x00, 0x00, 0x00, 0x00, 0x00, 0x09, 
};
